unsigned char ann_MLP_3F_tflite[] = {
    0x1c, 0x00, 0x00, 0x00, 0x54, 0x46, 0x4c, 0x33, 0x14, 0x00, 0x20, 0x00,
    0x1c, 0x00, 0x18, 0x00, 0x14, 0x00, 0x10, 0x00, 0x0c, 0x00, 0x00, 0x00,
    0x08, 0x00, 0x04, 0x00, 0x14, 0x00, 0x00, 0x00, 0x1c, 0x00, 0x00, 0x00,
    0x94, 0x00, 0x00, 0x00, 0xec, 0x00, 0x00, 0x00, 0x24, 0x10, 0x00, 0x00,
    0x34, 0x10, 0x00, 0x00, 0x60, 0x15, 0x00, 0x00, 0x03, 0x00, 0x00, 0x00,
    0x01, 0x00, 0x00, 0x00, 0x10, 0x00, 0x00, 0x00, 0x00, 0x00, 0x0a, 0x00,
    0x10, 0x00, 0x0c, 0x00, 0x08, 0x00, 0x04, 0x00, 0x0a, 0x00, 0x00, 0x00,
    0x0c, 0x00, 0x00, 0x00, 0x1c, 0x00, 0x00, 0x00, 0x3c, 0x00, 0x00, 0x00,
    0x0f, 0x00, 0x00, 0x00, 0x73, 0x65, 0x72, 0x76, 0x69, 0x6e, 0x67, 0x5f,
    0x64, 0x65, 0x66, 0x61, 0x75, 0x6c, 0x74, 0x00, 0x01, 0x00, 0x00, 0x00,
    0x04, 0x00, 0x00, 0x00, 0x94, 0xff, 0xff, 0xff, 0x09, 0x00, 0x00, 0x00,
    0x04, 0x00, 0x00, 0x00, 0x08, 0x00, 0x00, 0x00, 0x6f, 0x75, 0x74, 0x70,
    0x75, 0x74, 0x5f, 0x30, 0x00, 0x00, 0x00, 0x00, 0x01, 0x00, 0x00, 0x00,
    0x04, 0x00, 0x00, 0x00, 0x0a, 0xf1, 0xff, 0xff, 0x04, 0x00, 0x00, 0x00,
    0x0b, 0x00, 0x00, 0x00, 0x69, 0x6e, 0x70, 0x75, 0x74, 0x5f, 0x6c, 0x61,
    0x79, 0x65, 0x72, 0x00, 0x02, 0x00, 0x00, 0x00, 0x34, 0x00, 0x00, 0x00,
    0x04, 0x00, 0x00, 0x00, 0xdc, 0xff, 0xff, 0xff, 0x0c, 0x00, 0x00, 0x00,
    0x04, 0x00, 0x00, 0x00, 0x13, 0x00, 0x00, 0x00, 0x43, 0x4f, 0x4e, 0x56,
    0x45, 0x52, 0x53, 0x49, 0x4f, 0x4e, 0x5f, 0x4d, 0x45, 0x54, 0x41, 0x44,
    0x41, 0x54, 0x41, 0x00, 0x08, 0x00, 0x0c, 0x00, 0x08, 0x00, 0x04, 0x00,
    0x08, 0x00, 0x00, 0x00, 0x0b, 0x00, 0x00, 0x00, 0x04, 0x00, 0x00, 0x00,
    0x13, 0x00, 0x00, 0x00, 0x6d, 0x69, 0x6e, 0x5f, 0x72, 0x75, 0x6e, 0x74,
    0x69, 0x6d, 0x65, 0x5f, 0x76, 0x65, 0x72, 0x73, 0x69, 0x6f, 0x6e, 0x00,
    0x0d, 0x00, 0x00, 0x00, 0x34, 0x0f, 0x00, 0x00, 0x2c, 0x0f, 0x00, 0x00,
    0x7c, 0x0e, 0x00, 0x00, 0x74, 0x03, 0x00, 0x00, 0x5c, 0x03, 0x00, 0x00,
    0xfc, 0x02, 0x00, 0x00, 0x60, 0x02, 0x00, 0x00, 0xac, 0x00, 0x00, 0x00,
    0xa4, 0x00, 0x00, 0x00, 0x9c, 0x00, 0x00, 0x00, 0x94, 0x00, 0x00, 0x00,
    0x74, 0x00, 0x00, 0x00, 0x04, 0x00, 0x00, 0x00, 0xb6, 0xf1, 0xff, 0xff,
    0x04, 0x00, 0x00, 0x00, 0x60, 0x00, 0x00, 0x00, 0x10, 0x00, 0x00, 0x00,
    0x00, 0x00, 0x00, 0x00, 0x08, 0x00, 0x0e, 0x00, 0x08, 0x00, 0x04, 0x00,
    0x08, 0x00, 0x00, 0x00, 0x10, 0x00, 0x00, 0x00, 0x24, 0x00, 0x00, 0x00,
    0x00, 0x00, 0x06, 0x00, 0x08, 0x00, 0x04, 0x00, 0x06, 0x00, 0x00, 0x00,
    0x04, 0x00, 0x00, 0x00, 0x00, 0x00, 0x00, 0x00, 0x0c, 0x00, 0x18, 0x00,
    0x14, 0x00, 0x10, 0x00, 0x0c, 0x00, 0x04, 0x00, 0x0c, 0x00, 0x00, 0x00,
    0x81, 0x13, 0x7a, 0x7a, 0xaf, 0x13, 0xc4, 0x28, 0x02, 0x00, 0x00, 0x00,
    0x02, 0x00, 0x00, 0x00, 0x04, 0x00, 0x00, 0x00, 0x06, 0x00, 0x00, 0x00,
    0x32, 0x2e, 0x31, 0x37, 0x2e, 0x30, 0x00, 0x00, 0x22, 0xf2, 0xff, 0xff,
    0x04, 0x00, 0x00, 0x00, 0x10, 0x00, 0x00, 0x00, 0x31, 0x2e, 0x35, 0x2e,
    0x30, 0x00, 0x00, 0x00, 0x00, 0x00, 0x00, 0x00, 0x00, 0x00, 0x00, 0x00,
    0x78, 0xec, 0xff, 0xff, 0x7c, 0xec, 0xff, 0xff, 0x80, 0xec, 0xff, 0xff,
    0x4a, 0xf2, 0xff, 0xff, 0x04, 0x00, 0x00, 0x00, 0xa4, 0x01, 0x00, 0x00,
    0xc1, 0xdd, 0x95, 0xba, 0x9f, 0x22, 0x46, 0xbf, 0xf1, 0xaf, 0x55, 0x3e,
    0xd5, 0x8c, 0x6f, 0x3d, 0x94, 0x1e, 0x38, 0xbd, 0x95, 0x9f, 0xd6, 0xbd,
    0xb6, 0xdc, 0xa2, 0x3d, 0xb3, 0xf3, 0x3b, 0xbd, 0x4e, 0x43, 0xe2, 0xbd,
    0xa8, 0x40, 0x1e, 0x3e, 0x96, 0xe7, 0x2b, 0xb9, 0x88, 0x35, 0xc7, 0xbd,
    0xb4, 0x75, 0x68, 0x3e, 0xa9, 0xed, 0xaa, 0xba, 0xe7, 0x12, 0x0a, 0xbe,
    0x98, 0x8e, 0xd9, 0xbc, 0xf0, 0xdb, 0xf0, 0xbd, 0x00, 0x22, 0x97, 0xbd,
    0xc4, 0xcf, 0xe5, 0x3b, 0x91, 0xda, 0xaa, 0xbd, 0xc2, 0x15, 0xb1, 0xbd,
    0xaf, 0xa2, 0x36, 0xbf, 0xa1, 0x71, 0x5e, 0x3e, 0x15, 0xce, 0xa7, 0xbd,
    0xeb, 0x01, 0x01, 0x3e, 0x11, 0xa8, 0x02, 0xbc, 0xdc, 0xd6, 0xc5, 0xbd,
    0x29, 0x5b, 0x0d, 0xbc, 0x84, 0x1b, 0x94, 0x3c, 0x72, 0x10, 0x23, 0xbd,
    0x37, 0xa0, 0x05, 0xbe, 0xea, 0x4b, 0x32, 0xbf, 0x87, 0x85, 0xa3, 0x3e,
    0x3e, 0x92, 0x29, 0x3e, 0x98, 0xe2, 0xaf, 0x3d, 0x55, 0x38, 0xa7, 0x3d,
    0x9f, 0x04, 0xfd, 0xbb, 0x96, 0x7e, 0x5e, 0xbf, 0x59, 0x08, 0x7e, 0x3e,
    0xfe, 0x5a, 0x29, 0x3d, 0x38, 0xdd, 0x89, 0xbd, 0x3f, 0x09, 0x81, 0xbd,
    0xe6, 0x89, 0xe6, 0xbd, 0x29, 0xc6, 0x0e, 0xbe, 0xe7, 0x43, 0x85, 0x3d,
    0x05, 0xd0, 0x60, 0x3d, 0xd6, 0x50, 0xf0, 0x3d, 0x44, 0x1e, 0x66, 0x3e,
    0x35, 0x27, 0x9d, 0x3d, 0xe6, 0x8f, 0x31, 0x3d, 0x43, 0x2e, 0x50, 0xbd,
    0xf5, 0xf8, 0x13, 0x3e, 0xf0, 0x74, 0x23, 0x3c, 0xb2, 0xa0, 0xc0, 0xbd,
    0x1e, 0xfc, 0xda, 0x3d, 0x6c, 0x01, 0x84, 0xbd, 0xf7, 0x12, 0x2f, 0xbe,
    0x35, 0x5e, 0x94, 0xbc, 0x68, 0x46, 0x56, 0xbf, 0x5a, 0x09, 0x74, 0x3e,
    0x4d, 0x39, 0x09, 0x3e, 0x7b, 0x1f, 0xdc, 0xbb, 0x4a, 0x0d, 0xe5, 0xbd,
    0x24, 0x6b, 0xf9, 0xbe, 0x03, 0x47, 0xea, 0x3c, 0x75, 0x0d, 0xfa, 0xbe,
    0xad, 0x87, 0x8b, 0xbd, 0x3c, 0x38, 0x35, 0xbd, 0xcd, 0x2f, 0x87, 0xbc,
    0xb9, 0x14, 0xae, 0x3d, 0x40, 0x96, 0x0f, 0xbd, 0x30, 0xf7, 0x03, 0xbe,
    0x24, 0x97, 0xd7, 0x3d, 0x5c, 0xeb, 0xf6, 0xbc, 0x95, 0xe0, 0xe3, 0xbd,
    0xfb, 0x39, 0x9e, 0x3d, 0x5a, 0xb3, 0x8e, 0xbd, 0xe2, 0x91, 0x18, 0xbe,
    0x6c, 0xf7, 0x28, 0xbd, 0x87, 0x37, 0x22, 0x3d, 0x9b, 0x1b, 0x0b, 0x3e,
    0x06, 0x5b, 0x4f, 0xbe, 0x72, 0xd0, 0x59, 0xbe, 0x14, 0x5b, 0xe8, 0x3d,
    0xbe, 0xfe, 0x0b, 0xbf, 0xb2, 0xa3, 0xa6, 0x3d, 0xd5, 0x9d, 0x45, 0xbd,
    0xe8, 0xdb, 0x43, 0xbe, 0x89, 0x0a, 0x0b, 0x3d, 0x01, 0x8b, 0xec, 0x3d,
    0x96, 0x8c, 0xae, 0x3d, 0x09, 0x34, 0xa3, 0xbc, 0xc4, 0x3d, 0xdc, 0xbd,
    0x48, 0xcf, 0x55, 0xbe, 0x55, 0x22, 0x75, 0xbe, 0xfa, 0x6b, 0x4a, 0x3d,
    0xc3, 0xa5, 0x2e, 0xbd, 0x23, 0xe5, 0x08, 0xbe, 0x4c, 0x9b, 0xae, 0x3c,
    0x49, 0x4e, 0x9e, 0x3c, 0xdb, 0xad, 0xdc, 0xbd, 0x39, 0x3f, 0xdf, 0xbd,
    0xeb, 0x4c, 0x1e, 0x3d, 0x35, 0xa1, 0x3c, 0xbd, 0x2d, 0xe4, 0xb3, 0xbd,
    0xfa, 0xf3, 0xff, 0xff, 0x04, 0x00, 0x00, 0x00, 0x8c, 0x00, 0x00, 0x00,
    0x00, 0x0d, 0xc1, 0xbd, 0x9b, 0x72, 0x49, 0x3e, 0x49, 0x5f, 0x47, 0x3e,
    0x48, 0x6f, 0x51, 0x3e, 0x81, 0x1d, 0x9b, 0x3e, 0x40, 0x9f, 0x90, 0x3e,
    0x73, 0x18, 0x98, 0x3e, 0x8d, 0x3d, 0xa2, 0x3d, 0xfc, 0x85, 0x36, 0x3e,
    0x61, 0x91, 0x4f, 0x3e, 0xb2, 0x1d, 0x86, 0xbc, 0x8d, 0x75, 0xbc, 0x3e,
    0x5c, 0xa6, 0xcf, 0xbd, 0xb7, 0xde, 0x86, 0x3e, 0x3a, 0xf6, 0x65, 0x3e,
    0x0b, 0x78, 0xaa, 0x3e, 0x09, 0x70, 0x59, 0x3e, 0x15, 0x3d, 0x2e, 0x3e,
    0x6d, 0xe5, 0x7e, 0x3e, 0xb9, 0x4e, 0xbb, 0xbd, 0x2e, 0x29, 0x44, 0x3e,
    0x9e, 0x39, 0x0c, 0xbe, 0xe3, 0x3b, 0xd3, 0x3e, 0xfc, 0x2a, 0x35, 0x3e,
    0xd8, 0xf4, 0x47, 0x3e, 0xd1, 0x60, 0x7c, 0x3e, 0x18, 0x06, 0xa2, 0x3e,
    0xcd, 0x9d, 0x9d, 0x3e, 0x77, 0xbd, 0x5a, 0x3e, 0xca, 0x11, 0x0b, 0x3f,
    0xaf, 0x6a, 0x21, 0x3e, 0x27, 0xa5, 0x96, 0x3e, 0xa3, 0x07, 0xa3, 0x3e,
    0x78, 0x56, 0xae, 0x3e, 0x98, 0x42, 0x32, 0x3e, 0x92, 0xf4, 0xff, 0xff,
    0x04, 0x00, 0x00, 0x00, 0x50, 0x00, 0x00, 0x00, 0x16, 0x49, 0x87, 0x40,
    0x65, 0xb8, 0x81, 0x40, 0x37, 0xa5, 0x8b, 0x40, 0xcf, 0xe3, 0x10, 0xbc,
    0x13, 0xf2, 0x85, 0x40, 0x1d, 0xad, 0xbf, 0xbd, 0x33, 0xf6, 0x0d, 0xbe,
    0x47, 0xab, 0x82, 0x40, 0x83, 0xfa, 0x7e, 0x40, 0xef, 0xd7, 0x5f, 0x3f,
    0x35, 0x7c, 0x85, 0x40, 0x45, 0x5b, 0x8a, 0x40, 0xd1, 0x72, 0x65, 0x3e,
    0x8b, 0xe0, 0x8e, 0x40, 0x05, 0x53, 0x0f, 0xbe, 0x39, 0x40, 0x83, 0x40,
    0x57, 0x3d, 0x89, 0x40, 0xff, 0xb5, 0x76, 0x40, 0x1a, 0x15, 0x81, 0x40,
    0xf7, 0x74, 0x32, 0xbe, 0xee, 0xf4, 0xff, 0xff, 0x04, 0x00, 0x00, 0x00,
    0x08, 0x00, 0x00, 0x00, 0xaa, 0xc3, 0xae, 0x41, 0x16, 0x7c, 0xa7, 0x41,
    0x02, 0xf5, 0xff, 0xff, 0x04, 0x00, 0x00, 0x00, 0xf0, 0x0a, 0x00, 0x00,
    0x9e, 0xce, 0xc0, 0x3b, 0x58, 0x35, 0x0b, 0x3e, 0x56, 0x8c, 0x04, 0x3e,
    0x65, 0x90, 0x52, 0xbe, 0xa3, 0x16, 0xb8, 0xbd, 0x26, 0x65, 0x34, 0xbe,
    0xe7, 0xb3, 0x46, 0x3c, 0xab, 0x44, 0x1f, 0xbe, 0x3d, 0x95, 0xa0, 0x3c,
    0xe0, 0xca, 0x89, 0x3b, 0xfc, 0x28, 0x47, 0x3e, 0xb5, 0x59, 0xe7, 0xbc,
    0xc0, 0x4b, 0xe7, 0xbc, 0xd1, 0xdf, 0x38, 0x3d, 0xde, 0xab, 0x0d, 0xbe,
    0xc2, 0x40, 0xe1, 0xbd, 0x89, 0xd1, 0x7d, 0x3d, 0x36, 0x21, 0x49, 0x3e,
    0x0e, 0x02, 0xc0, 0xbd, 0x76, 0x67, 0x36, 0x3e, 0xdc, 0x61, 0x24, 0x3d,
    0x24, 0x1a, 0x6d, 0xbe, 0x7f, 0xb9, 0x0a, 0xbd, 0x12, 0x40, 0x5f, 0x3d,
    0x2d, 0x70, 0xbd, 0x3d, 0xf0, 0xfd, 0x94, 0xbd, 0xf7, 0x0a, 0xad, 0xbe,
    0xce, 0xdb, 0x04, 0x3e, 0x6c, 0xd2, 0xbb, 0xbd, 0xe3, 0x51, 0x91, 0xbd,
    0xe0, 0x82, 0xf8, 0xbd, 0xb6, 0xb0, 0x96, 0xbd, 0x72, 0xc1, 0x74, 0xbd,
    0xb5, 0x28, 0xa9, 0x3c, 0x37, 0x38, 0x98, 0x3e, 0xf8, 0xc5, 0xa7, 0x3d,
    0xe8, 0x00, 0x34, 0xbd, 0x3b, 0x1e, 0x3c, 0x3e, 0x6d, 0xb1, 0xed, 0x3d,
    0x0a, 0x1b, 0x6d, 0xbd, 0x02, 0x73, 0x0e, 0x3e, 0x8f, 0x1d, 0x86, 0x3d,
    0x35, 0xfa, 0x8c, 0xbe, 0x88, 0x74, 0x8b, 0x3d, 0xba, 0xf5, 0xb5, 0x3d,
    0xe2, 0xd8, 0xad, 0x3d, 0xed, 0xca, 0x1e, 0xbe, 0x33, 0x2c, 0x62, 0x3e,
    0xba, 0xfe, 0xd8, 0x3d, 0xa8, 0xe3, 0xcf, 0xbd, 0xa6, 0x55, 0x0f, 0xbe,
    0x6d, 0xad, 0x66, 0x3e, 0x18, 0x7d, 0x5e, 0x3e, 0x8b, 0x29, 0xa8, 0xbc,
    0x58, 0x7c, 0x1d, 0x3e, 0x6a, 0x32, 0xce, 0xbb, 0x3f, 0xad, 0x91, 0xbe,
    0x2e, 0x08, 0x9a, 0x3d, 0x14, 0x45, 0x7a, 0x3e, 0x3f, 0xd0, 0x45, 0x3e,
    0x54, 0x8c, 0x3c, 0x3d, 0x38, 0xca, 0x8f, 0xba, 0xdc, 0x15, 0xd7, 0xbd,
    0xc0, 0x2e, 0x58, 0xbe, 0x9e, 0xa6, 0xa3, 0xbc, 0xd6, 0x35, 0x35, 0x3e,
    0x3c, 0x89, 0x2c, 0xbd, 0x78, 0x64, 0x6a, 0xbd, 0xaa, 0x23, 0xaf, 0x3d,
    0xe4, 0x75, 0xcb, 0x3d, 0x10, 0xb2, 0x81, 0x3d, 0x3d, 0xc4, 0xf9, 0xbb,
    0xba, 0x91, 0xc2, 0xbd, 0x78, 0x9c, 0x6b, 0x3c, 0x61, 0x6e, 0xe8, 0xbd,
    0xb4, 0x3b, 0x2f, 0x3e, 0x33, 0x5c, 0xaf, 0xbd, 0xea, 0x26, 0x89, 0xbe,
    0x99, 0xb2, 0x31, 0x3d, 0xaf, 0xa2, 0x5a, 0xbe, 0x31, 0xf8, 0x7f, 0xbd,
    0x54, 0x9a, 0x55, 0xbe, 0x32, 0x64, 0x72, 0x3d, 0x5a, 0x8b, 0x62, 0x3d,
    0xf1, 0xc3, 0x19, 0xbe, 0x2f, 0xcc, 0x14, 0xbe, 0xd6, 0x68, 0xd4, 0xbd,
    0x1b, 0x4c, 0x6c, 0xbe, 0x37, 0x08, 0x0a, 0x3e, 0x0d, 0xe1, 0xb5, 0xbb,
    0xd6, 0xf2, 0x33, 0x3d, 0x1d, 0xfa, 0xa4, 0xbe, 0xa8, 0x2e, 0x4b, 0xbd,
    0x3c, 0xd8, 0xbd, 0x3d, 0x4d, 0x03, 0x6d, 0xbe, 0x5e, 0x67, 0xca, 0xbd,
    0x60, 0xc9, 0xb5, 0xbe, 0x65, 0x49, 0x82, 0xbb, 0x4e, 0x5e, 0x95, 0xbe,
    0x2a, 0xa8, 0x00, 0xbe, 0x80, 0x9a, 0x53, 0x3d, 0x4a, 0x49, 0x36, 0x3d,
    0xbe, 0x29, 0x84, 0x3d, 0xd9, 0xfa, 0x39, 0xbe, 0xe7, 0xab, 0xa5, 0x3e,
    0x76, 0xc5, 0x14, 0xbe, 0xd3, 0xcf, 0xa4, 0xbe, 0xba, 0x9e, 0x30, 0xbe,
    0x0f, 0xf4, 0xb9, 0xbd, 0xb7, 0x7f, 0x8f, 0xbe, 0x95, 0x28, 0xca, 0x3d,
    0x9d, 0x40, 0x16, 0xbe, 0xbf, 0x39, 0x4b, 0xbe, 0xdd, 0xf8, 0xfc, 0x3d,
    0xd4, 0x46, 0x60, 0xbe, 0x68, 0xb6, 0x8a, 0x3e, 0xb2, 0xe7, 0x0a, 0xbe,
    0x2f, 0xe2, 0x8f, 0x3e, 0xeb, 0x6f, 0xd2, 0xbd, 0x41, 0x4d, 0x3f, 0xbe,
    0xdb, 0x95, 0xf3, 0xbd, 0x0d, 0x0d, 0x2c, 0xbc, 0x25, 0x22, 0xf2, 0xbd,
    0x0f, 0xf0, 0x83, 0xbe, 0xeb, 0xd9, 0x37, 0x3e, 0x9f, 0x3e, 0x83, 0xbd,
    0xe8, 0xb3, 0xeb, 0x3d, 0xf4, 0x43, 0x0c, 0x3e, 0xe5, 0xfe, 0xe8, 0xbd,
    0xbd, 0x30, 0x85, 0xbe, 0x18, 0xd0, 0x9b, 0xbe, 0x5b, 0x8e, 0x50, 0x3e,
    0xbf, 0x0b, 0x6a, 0xbe, 0x3d, 0xf2, 0x01, 0xbd, 0xa2, 0xf2, 0xc0, 0xbd,
    0xe9, 0x35, 0x00, 0xbe, 0xdb, 0x8a, 0x34, 0xbd, 0xff, 0xe2, 0xd5, 0xbd,
    0xaf, 0xfc, 0x99, 0xbe, 0x2d, 0x19, 0x88, 0xbd, 0x76, 0x1d, 0x0d, 0x3e,
    0x6b, 0x6c, 0xb1, 0x3c, 0x79, 0x96, 0xf0, 0x3d, 0xdb, 0xc8, 0x33, 0x3e,
    0x74, 0xc8, 0x37, 0x3e, 0x14, 0x39, 0x4b, 0x3d, 0x76, 0x7f, 0x2e, 0x3e,
    0x45, 0x81, 0xd2, 0xbc, 0x7e, 0xa4, 0x9f, 0x3e, 0x42, 0x54, 0xbf, 0xbd,
    0x09, 0xc5, 0x6f, 0x3e, 0xd3, 0xdb, 0xf4, 0x3b, 0xb0, 0x2c, 0xe6, 0x3b,
    0xc8, 0xc1, 0xa0, 0x3c, 0x07, 0x03, 0xee, 0x3d, 0xa7, 0x47, 0x0f, 0xbd,
    0xc5, 0xe7, 0x88, 0x3e, 0x8f, 0xfd, 0x9c, 0x3d, 0xdc, 0xef, 0xbd, 0x3c,
    0x61, 0x05, 0x2d, 0x3c, 0xab, 0xa2, 0x84, 0x3e, 0xe2, 0xcc, 0xa0, 0xbe,
    0x6a, 0xb0, 0x5f, 0x3d, 0xbd, 0x32, 0x8b, 0x3e, 0xef, 0x1b, 0x27, 0x3e,
    0xef, 0xf4, 0x5d, 0x3d, 0x0c, 0x59, 0x2e, 0x3e, 0x2e, 0x86, 0xeb, 0x3b,
    0x60, 0xab, 0x86, 0xbe, 0xbb, 0x82, 0x1e, 0xbd, 0x00, 0x7d, 0xbd, 0xbc,
    0x34, 0xbb, 0xfb, 0xbd, 0x35, 0xd4, 0x48, 0x3e, 0xc1, 0x27, 0xea, 0xbb,
    0xd9, 0x5b, 0xb3, 0x3c, 0xd3, 0x6c, 0xbb, 0xbe, 0xed, 0x35, 0x1c, 0x3e,
    0x0f, 0x25, 0xb3, 0xbd, 0xa7, 0x95, 0x53, 0xbe, 0x42, 0x78, 0xbe, 0x3d,
    0xf7, 0xb5, 0xbb, 0xbd, 0x23, 0x9b, 0x27, 0xbe, 0xda, 0xac, 0x42, 0xbe,
    0xd7, 0xbb, 0xc5, 0xbe, 0xd7, 0xce, 0xa0, 0xbd, 0xf8, 0x3b, 0x47, 0xbe,
    0x68, 0xbd, 0x83, 0xbe, 0x72, 0x62, 0xab, 0xbe, 0xd5, 0x43, 0x88, 0xbe,
    0x5f, 0x1d, 0xac, 0xbe, 0xf5, 0x1a, 0x81, 0x3d, 0x39, 0x28, 0xef, 0xbd,
    0x04, 0x56, 0xc1, 0xbe, 0x8e, 0x18, 0xb4, 0x3d, 0xbf, 0x3c, 0x29, 0xbe,
    0xdc, 0xd9, 0x9c, 0xbe, 0xce, 0x10, 0xed, 0xbd, 0x01, 0x9b, 0x74, 0xbe,
    0xf9, 0x72, 0x4b, 0xbe, 0xf3, 0x59, 0x7f, 0xbe, 0x1c, 0x88, 0x91, 0xbe,
    0x32, 0x13, 0xba, 0x3d, 0x47, 0xfa, 0x6c, 0x3e, 0x3f, 0xdc, 0xb8, 0xbe,
    0xed, 0x19, 0x15, 0xbe, 0x55, 0xef, 0x8d, 0xbe, 0x5d, 0x5c, 0xee, 0xbb,
    0x54, 0xc2, 0xdc, 0x3d, 0x19, 0xe5, 0x6d, 0xbe, 0xe7, 0xf4, 0x86, 0x3e,
    0x28, 0x02, 0x82, 0xbd, 0x44, 0x7d, 0xf1, 0xbd, 0x39, 0x86, 0xdb, 0xbd,
    0x99, 0xbc, 0x4a, 0xbe, 0x58, 0x48, 0x05, 0x3e, 0xe3, 0x82, 0x07, 0xbe,
    0x95, 0x20, 0xa2, 0xbe, 0xac, 0xd5, 0xb9, 0xbe, 0x34, 0x59, 0x1c, 0xbe,
    0x22, 0xc1, 0xba, 0xbd, 0x63, 0x80, 0x71, 0xbd, 0x81, 0xe4, 0xc7, 0xbd,
    0x08, 0x19, 0x2c, 0xbc, 0xf1, 0xc7, 0xca, 0xbd, 0x14, 0x5a, 0xb1, 0xbe,
    0x3c, 0xab, 0x24, 0xbe, 0x4a, 0x41, 0xeb, 0x3d, 0x29, 0x3d, 0xcc, 0xbe,
    0xd0, 0xed, 0x0f, 0xbd, 0xf0, 0x40, 0x42, 0xbe, 0x3e, 0xdd, 0xba, 0xbe,
    0xf7, 0x3a, 0xc0, 0x3d, 0x1e, 0x59, 0x7e, 0xbe, 0xb7, 0x9f, 0x1b, 0xbe,
    0xbf, 0xbc, 0x01, 0x3e, 0x14, 0x89, 0xce, 0xbe, 0xa0, 0xfd, 0x2d, 0x3d,
    0xf9, 0x10, 0x62, 0xbe, 0xf0, 0xd6, 0x9b, 0x3d, 0x76, 0xcf, 0x0a, 0xbe,
    0xca, 0x1d, 0x85, 0xbe, 0x07, 0x85, 0xa2, 0x3c, 0x88, 0xa3, 0x8f, 0xbc,
    0x66, 0x57, 0x69, 0xbe, 0xc8, 0x63, 0x29, 0xbe, 0xb2, 0x87, 0xf8, 0x3c,
    0x01, 0x97, 0xde, 0x3d, 0x54, 0xd3, 0x44, 0x3e, 0x65, 0xe9, 0x41, 0x3e,
    0x3a, 0x1a, 0x36, 0xbd, 0x92, 0xbf, 0xa9, 0x3b, 0x7f, 0xe2, 0x43, 0x3d,
    0x25, 0xae, 0x25, 0xbe, 0x1e, 0x9a, 0x1b, 0x3c, 0xb8, 0xd2, 0x68, 0x3e,
    0x9a, 0x75, 0x37, 0xbd, 0x96, 0xd4, 0x6e, 0xbd, 0x39, 0xec, 0x92, 0x3e,
    0xa9, 0x92, 0x39, 0x3e, 0x99, 0x41, 0xfa, 0x3c, 0x79, 0xf0, 0xe3, 0x3c,
    0xec, 0x4a, 0xa6, 0x3d, 0x9e, 0x21, 0x94, 0x3e, 0xc0, 0x69, 0x9e, 0x3d,
    0x69, 0x20, 0xc8, 0x3d, 0x9a, 0x4f, 0x23, 0xbe, 0x87, 0x39, 0x3a, 0xbe,
    0x4d, 0xbd, 0x0b, 0xbd, 0x77, 0x18, 0x93, 0x3d, 0xa7, 0x52, 0x07, 0x3e,
    0xe9, 0xe9, 0xd4, 0xbb, 0x07, 0xaa, 0xb0, 0xbc, 0x6f, 0x07, 0x45, 0xbe,
    0x0b, 0x6b, 0x18, 0xbe, 0xfd, 0xbd, 0xc4, 0x3c, 0xff, 0x9b, 0x84, 0x3d,
    0xc0, 0x0f, 0x56, 0x3d, 0xbd, 0xb0, 0x5b, 0x3d, 0x04, 0xb0, 0x38, 0x3e,
    0xd1, 0xec, 0x6d, 0xbd, 0x75, 0x49, 0xcc, 0x3e, 0x7d, 0x83, 0x0e, 0xbe,
    0x47, 0x32, 0xec, 0x3d, 0x2c, 0xb5, 0xd9, 0x3d, 0x97, 0x11, 0x3d, 0x3e,
    0xe5, 0x3c, 0xe5, 0xbd, 0x21, 0x67, 0x95, 0xbd, 0x60, 0x44, 0x29, 0x3d,
    0x42, 0x38, 0x19, 0x3d, 0xd7, 0x7d, 0x68, 0x3e, 0x4e, 0xf3, 0xed, 0x3d,
    0xae, 0x33, 0xad, 0x3d, 0x3e, 0xea, 0xba, 0x3d, 0xda, 0x9f, 0x1d, 0x3e,
    0x73, 0x6e, 0x1e, 0x3e, 0x85, 0x9e, 0x13, 0x3e, 0x87, 0x18, 0x17, 0xbc,
    0x84, 0x87, 0x4a, 0xbd, 0x17, 0x00, 0x44, 0xbd, 0x6a, 0xc6, 0x5f, 0x3e,
    0x77, 0x47, 0xd4, 0xbd, 0x56, 0x00, 0x8c, 0xbd, 0xe0, 0xa9, 0x25, 0x3e,
    0xaa, 0x00, 0x06, 0x3e, 0x9c, 0xfe, 0x1d, 0xbe, 0xdf, 0x3a, 0x6a, 0x3b,
    0x9b, 0x08, 0x51, 0x3d, 0x67, 0xf6, 0xa4, 0x3d, 0xba, 0x65, 0xdd, 0x3c,
    0xf4, 0x43, 0x87, 0x3d, 0xf3, 0x53, 0x1f, 0x3e, 0x57, 0xa8, 0x40, 0x3e,
    0x77, 0xc6, 0x5e, 0xbc, 0x35, 0x4f, 0x91, 0xbd, 0xf7, 0x97, 0xd5, 0x3d,
    0xf9, 0x4e, 0x60, 0x3f, 0x78, 0xa1, 0xa5, 0x3e, 0x2b, 0x72, 0x19, 0x3c,
    0x18, 0x08, 0x7c, 0x3e, 0xcb, 0xe2, 0xd9, 0x3d, 0x23, 0x94, 0x32, 0x3e,
    0x92, 0x5e, 0xb1, 0x3e, 0x9b, 0x64, 0x0e, 0x3f, 0x06, 0xb2, 0x04, 0x3e,
    0x1e, 0xe0, 0xbe, 0x3e, 0x3e, 0xd0, 0x8b, 0x3f, 0x8d, 0x59, 0xde, 0x3e,
    0xe7, 0xba, 0x37, 0x3f, 0x2c, 0xe1, 0xb5, 0x3e, 0xa1, 0x58, 0x1a, 0x3f,
    0x39, 0xb4, 0x08, 0x3f, 0xa7, 0xc2, 0xc4, 0x3e, 0x83, 0xc0, 0x04, 0xbc,
    0xc8, 0x40, 0x54, 0x3b, 0x84, 0x24, 0x64, 0x3f, 0xf4, 0xca, 0xd7, 0x3d,
    0x02, 0x87, 0xdc, 0x3e, 0x98, 0x85, 0x00, 0x3f, 0xb5, 0xa6, 0x23, 0xbe,
    0x15, 0x40, 0xbd, 0xbc, 0xea, 0x9e, 0xe3, 0xbc, 0xb0, 0x8d, 0x33, 0x3f,
    0x8c, 0x4f, 0x20, 0x3f, 0xdf, 0x5f, 0x20, 0x3f, 0x88, 0xbb, 0x08, 0x3f,
    0x36, 0xef, 0x64, 0xbd, 0xe4, 0xa4, 0xce, 0x3e, 0xe5, 0x0c, 0x15, 0x3f,
    0x1b, 0xc0, 0x91, 0x3e, 0x60, 0x13, 0x6c, 0x3e, 0x1b, 0xb6, 0xc0, 0x3e,
    0xef, 0x4b, 0x66, 0x3e, 0x22, 0x23, 0x2d, 0x3e, 0xf3, 0x7f, 0x81, 0xbd,
    0x8f, 0xb3, 0x0f, 0x3d, 0x8f, 0xdf, 0x05, 0xbe, 0x9d, 0x82, 0xda, 0xbd,
    0xd8, 0xcf, 0xff, 0xbd, 0xcb, 0x8c, 0x15, 0xbe, 0xac, 0x91, 0x88, 0x3e,
    0x9f, 0x82, 0x01, 0x3d, 0xb8, 0x65, 0xe7, 0x3c, 0x21, 0x64, 0x6d, 0x3e,
    0x4a, 0xc8, 0xff, 0x3d, 0xc5, 0xe7, 0x19, 0x3e, 0x99, 0x09, 0x45, 0x3e,
    0x8e, 0x72, 0x90, 0x3e, 0xac, 0xc4, 0x75, 0x3e, 0x9e, 0x47, 0xe0, 0x3d,
    0x7f, 0xba, 0x22, 0x3e, 0xb8, 0x34, 0x34, 0x3e, 0x8b, 0x57, 0x5d, 0xbe,
    0xe8, 0xf8, 0xc1, 0xbd, 0x17, 0x06, 0xbb, 0xbd, 0x76, 0xe6, 0x1c, 0x3e,
    0x00, 0xaf, 0x83, 0x3e, 0x78, 0x04, 0xee, 0xbd, 0x7d, 0xa7, 0xff, 0x3d,
    0x06, 0xef, 0x1b, 0xbe, 0xb2, 0x27, 0xeb, 0x3c, 0x73, 0xb8, 0xf9, 0x3d,
    0x8c, 0x25, 0xb7, 0xbc, 0x46, 0x65, 0xde, 0x3d, 0xad, 0xb9, 0x1e, 0xbd,
    0x69, 0xec, 0x57, 0x3d, 0x2b, 0x7c, 0x4b, 0x3e, 0xc8, 0x5f, 0x18, 0x3e,
    0x98, 0x45, 0x96, 0xbd, 0x22, 0x03, 0x14, 0xbe, 0xf1, 0xa0, 0xeb, 0xbc,
    0x4a, 0x8a, 0x75, 0x3c, 0x7d, 0xa9, 0xe8, 0xbd, 0xf3, 0x32, 0xec, 0xbd,
    0x25, 0x10, 0xba, 0xbd, 0x9e, 0xcd, 0x1b, 0xbe, 0x6f, 0xf7, 0x21, 0x3e,
    0xbc, 0xc2, 0xc0, 0xbc, 0xe7, 0x40, 0xa3, 0x3e, 0x5a, 0x94, 0x2d, 0xbe,
    0xe3, 0xf6, 0x05, 0xbe, 0x28, 0x64, 0x1b, 0xbe, 0xa3, 0x4a, 0xcf, 0xbd,
    0x5b, 0x37, 0x64, 0x3b, 0x3d, 0xbe, 0x48, 0x3e, 0x54, 0x28, 0x9f, 0x3e,
    0xb5, 0xf6, 0x35, 0x3e, 0x31, 0xeb, 0x6d, 0xbd, 0x8d, 0xd7, 0x40, 0xbe,
    0xc1, 0xa8, 0x08, 0xbd, 0xe2, 0x91, 0x0c, 0xbe, 0x37, 0x0e, 0x28, 0x3d,
    0xf5, 0xa1, 0x2d, 0x3c, 0xca, 0x72, 0x48, 0xbe, 0x4f, 0xf7, 0x8f, 0x3d,
    0x1c, 0x23, 0xc5, 0xbd, 0x5d, 0x36, 0xce, 0xbd, 0xcb, 0x27, 0xaf, 0x3d,
    0xf3, 0x2d, 0xcd, 0x3d, 0xbc, 0xea, 0x01, 0xbe, 0x33, 0xf3, 0xb2, 0xbc,
    0x7c, 0xfc, 0x38, 0x3e, 0x3d, 0x3f, 0x94, 0x3d, 0x9d, 0x7f, 0x3d, 0x3e,
    0x2c, 0x01, 0x88, 0xbe, 0x2e, 0xe3, 0x8a, 0xbe, 0x18, 0x99, 0x01, 0x3f,
    0xb1, 0x5c, 0x82, 0x3e, 0x42, 0x0d, 0x17, 0x3f, 0x7b, 0xe7, 0x6a, 0xbe,
    0x95, 0xb1, 0x78, 0x3e, 0x8d, 0x4f, 0x30, 0x3f, 0xa7, 0xf6, 0x6e, 0xbe,
    0x9e, 0xe8, 0xa6, 0x3e, 0xdf, 0x87, 0x10, 0x3c, 0x61, 0x98, 0xc5, 0x3e,
    0x15, 0x1b, 0xfd, 0xbd, 0xd3, 0xdf, 0xda, 0xbd, 0x0a, 0xfe, 0xe6, 0xbe,
    0xa7, 0x38, 0x57, 0xbd, 0x7b, 0x2c, 0x33, 0x3f, 0x2a, 0x94, 0x49, 0xbe,
    0x04, 0xb7, 0xc8, 0x3e, 0xac, 0xe2, 0xbc, 0x3e, 0xd3, 0x1e, 0x37, 0x3d,
    0xb8, 0xf3, 0x9a, 0xbc, 0x25, 0x46, 0x5a, 0x3e, 0x60, 0x11, 0x1a, 0x3e,
    0x97, 0x8a, 0xfe, 0x3e, 0xff, 0x14, 0x25, 0x3f, 0x99, 0x7c, 0xc5, 0x3e,
    0x1b, 0xd3, 0xa7, 0xbd, 0xe5, 0x47, 0x24, 0x3f, 0x74, 0x70, 0xaa, 0x3d,
    0xef, 0xe3, 0xb5, 0x3e, 0x82, 0xe9, 0x91, 0x3e, 0x92, 0x80, 0x2b, 0x3e,
    0x2d, 0xc8, 0xd0, 0xbc, 0xb0, 0x53, 0xc0, 0x3d, 0xd0, 0x1f, 0xcb, 0x3d,
    0x9c, 0xea, 0x80, 0x3d, 0x46, 0xf4, 0x25, 0xbe, 0x90, 0xa4, 0x20, 0xbe,
    0x9f, 0x3d, 0x8b, 0xbe, 0xfb, 0xda, 0x8e, 0xbc, 0xfc, 0xc9, 0xba, 0xbd,
    0xf4, 0x0e, 0xdb, 0xbc, 0xd6, 0xbb, 0xb1, 0x3c, 0xfd, 0x48, 0x06, 0x3e,
    0x7e, 0x76, 0xf3, 0xbd, 0x4c, 0x8a, 0x24, 0x3e, 0x26, 0x3d, 0x3e, 0xbe,
    0x55, 0x9c, 0x87, 0xbe, 0xc4, 0x87, 0x11, 0xbd, 0xde, 0xa3, 0xd7, 0xbd,
    0x3f, 0x6f, 0x3c, 0x3c, 0x65, 0xe0, 0x9e, 0xbd, 0xb2, 0x6c, 0x82, 0xbe,
    0x62, 0x25, 0x27, 0xbd, 0x47, 0x53, 0xa9, 0x3e, 0x89, 0x7b, 0x64, 0x3e,
    0x03, 0x34, 0xe4, 0x3d, 0x89, 0x61, 0xd9, 0xbd, 0xae, 0xde, 0x49, 0xbd,
    0x29, 0x24, 0x25, 0xbd, 0x79, 0xe0, 0x68, 0xbd, 0x2a, 0x6e, 0xf6, 0x3d,
    0x4c, 0xb2, 0x62, 0xbc, 0xc8, 0xb5, 0x37, 0xbe, 0x16, 0xbf, 0x66, 0xbc,
    0x1c, 0x2d, 0x72, 0x3e, 0x57, 0x77, 0xbf, 0xbe, 0xd5, 0x73, 0x1c, 0xbe,
    0xe5, 0x7c, 0x99, 0xbe, 0xc3, 0x1f, 0x85, 0xbe, 0x7f, 0xea, 0x29, 0xbe,
    0x08, 0xcb, 0x16, 0x3e, 0x38, 0x31, 0xc4, 0xbe, 0xbc, 0xce, 0x66, 0xbd,
    0xc2, 0x0b, 0x2a, 0xbd, 0x2c, 0xad, 0x85, 0xbe, 0x5b, 0x9e, 0xd7, 0x3d,
    0x84, 0x89, 0x11, 0x3e, 0x26, 0xad, 0x17, 0xbe, 0x5a, 0xec, 0x26, 0x3e,
    0x57, 0x85, 0x69, 0xbe, 0x82, 0xaa, 0xca, 0xbd, 0x01, 0x30, 0x99, 0xbd,
    0x05, 0xaa, 0xa9, 0xbe, 0xfb, 0xbe, 0x84, 0x3d, 0xf0, 0x4e, 0x0b, 0xbe,
    0x08, 0x41, 0x4c, 0xbe, 0x56, 0x9b, 0xe9, 0xbd, 0x26, 0x84, 0x9c, 0xbd,
    0x8d, 0x11, 0x48, 0xbd, 0x81, 0xcb, 0xa2, 0xbe, 0x8c, 0x9c, 0xa7, 0xbe,
    0x72, 0x13, 0x39, 0xbe, 0xd0, 0x58, 0x36, 0xbe, 0x3d, 0xd3, 0x60, 0xbd,
    0x78, 0x8e, 0x2e, 0xbe, 0x2e, 0x9a, 0x1a, 0x3d, 0x18, 0x17, 0xf8, 0x3d,
    0x6f, 0xc5, 0xad, 0xbe, 0x67, 0x15, 0x23, 0xbc, 0xda, 0x52, 0x3a, 0xbe,
    0x6b, 0x6c, 0x6f, 0x3e, 0xb9, 0x8c, 0x92, 0x3d, 0xbb, 0xbd, 0x41, 0xbd,
    0x9b, 0x2d, 0x27, 0x3e, 0x87, 0x76, 0x0a, 0x3e, 0x09, 0x47, 0x12, 0x3d,
    0x6f, 0xd4, 0xe8, 0x3d, 0xa5, 0xf3, 0xa3, 0xbd, 0x90, 0xd7, 0xed, 0x3b,
    0x37, 0xd9, 0x8b, 0xbd, 0x3b, 0x0a, 0x83, 0xbd, 0x2d, 0x7b, 0xfe, 0xbc,
    0x54, 0x61, 0x0b, 0xbd, 0x86, 0x9b, 0x8c, 0xbc, 0x3d, 0x8f, 0x39, 0x3d,
    0xeb, 0x5d, 0xf8, 0xbd, 0x03, 0x70, 0x29, 0xbe, 0x84, 0xc1, 0x9c, 0x3d,
    0xa5, 0xc3, 0xfc, 0xbd, 0x15, 0xdf, 0x80, 0x3e, 0x10, 0x80, 0x2a, 0x3d,
    0xee, 0x65, 0x08, 0xbe, 0x48, 0x4e, 0x24, 0x3d, 0x6d, 0xd0, 0x93, 0xbd,
    0x9f, 0x18, 0xc6, 0xbc, 0x28, 0x94, 0x36, 0x3e, 0xbd, 0x0a, 0xfd, 0x3d,
    0x79, 0x85, 0xa9, 0xbd, 0x04, 0x9a, 0x8d, 0xbd, 0x3e, 0xa2, 0x0b, 0xbe,
    0xd6, 0xdb, 0x98, 0x3d, 0x8a, 0x0f, 0xba, 0x3c, 0xa7, 0xda, 0x4b, 0xbe,
    0xa4, 0xae, 0xd2, 0xba, 0xe9, 0xa0, 0x46, 0xbd, 0x80, 0xf4, 0x89, 0x3e,
    0x32, 0xb7, 0x93, 0x3e, 0x0c, 0x6e, 0xc0, 0x3d, 0xb9, 0xea, 0x32, 0x3e,
    0xb0, 0xec, 0x8e, 0x3d, 0x46, 0xaf, 0x52, 0x3e, 0xf8, 0xd4, 0x0c, 0x3e,
    0x05, 0x8d, 0xe6, 0xbd, 0x5e, 0x6d, 0xd5, 0x3e, 0xbd, 0xca, 0x74, 0xbd,
    0x41, 0x0b, 0x8a, 0x3d, 0x06, 0x2c, 0xa5, 0xbc, 0x1d, 0xce, 0xe0, 0x3c,
    0xd9, 0xad, 0xc9, 0xbd, 0xe3, 0xfb, 0x01, 0x3d, 0x7a, 0xa3, 0xa2, 0x3d,
    0x94, 0x12, 0xa5, 0x3e, 0xb7, 0x9a, 0xd9, 0x3e, 0x22, 0x7f, 0x8d, 0x3e,
    0x88, 0x80, 0x2e, 0xbd, 0xc9, 0x0d, 0x31, 0x3e, 0x62, 0xcf, 0x74, 0xbe,
    0x26, 0xbe, 0x3d, 0xbd, 0xe4, 0xe7, 0xcf, 0x3d, 0x8b, 0xad, 0x83, 0x3e,
    0xa7, 0x19, 0x72, 0x3e, 0x54, 0x2e, 0x24, 0xbd, 0xc7, 0x32, 0x1f, 0xbd,
    0xcb, 0xc3, 0xaf, 0xbd, 0xbe, 0x0d, 0xc7, 0x3d, 0xcf, 0x20, 0x52, 0x3e,
    0xf7, 0x45, 0xd5, 0x3d, 0xdd, 0x1c, 0xe5, 0xbd, 0x33, 0xb7, 0x5d, 0x3e,
    0xca, 0x87, 0x34, 0x3e, 0x0e, 0xd9, 0x69, 0xbd, 0x53, 0x95, 0x5c, 0x3c,
    0xd1, 0xac, 0x5a, 0xbd, 0x29, 0x14, 0xaf, 0x3c, 0x00, 0xe6, 0xbc, 0xbd,
    0x28, 0xe8, 0xa6, 0x3d, 0x11, 0x7c, 0x51, 0xbc, 0xae, 0x29, 0x7c, 0xbe,
    0x98, 0x24, 0x14, 0xbe, 0xec, 0x76, 0x97, 0x3c, 0xd1, 0x41, 0x5e, 0x3d,
    0x89, 0x8e, 0xb7, 0x3c, 0xf7, 0x2e, 0x40, 0x3e, 0x5d, 0xbd, 0x10, 0xbe,
    0xeb, 0x92, 0x2f, 0x3d, 0x7e, 0x3b, 0x41, 0xbe, 0x63, 0x7f, 0x33, 0xbe,
    0xa8, 0x89, 0x17, 0xbe, 0xf8, 0x33, 0x3c, 0x3e, 0x6c, 0xe3, 0x5a, 0x3e,
    0x17, 0x5a, 0x35, 0x3e, 0x96, 0x32, 0x25, 0xbe, 0x08, 0x9c, 0x8c, 0xbd,
    0xcf, 0xfd, 0x27, 0xbe, 0xa7, 0xaf, 0xa2, 0xbd, 0x22, 0xf9, 0x0b, 0x3d,
    0x2d, 0x56, 0xee, 0xbd, 0xc0, 0x22, 0xa3, 0xbd, 0x58, 0xc4, 0x0a, 0xbd,
    0xb0, 0xa7, 0x9b, 0xbb, 0x2e, 0x0f, 0x51, 0x3d, 0x09, 0x38, 0x31, 0xbe,
    0x62, 0x5b, 0x48, 0xbd, 0x5e, 0x05, 0x5c, 0x3d, 0xde, 0x50, 0x96, 0xbe,
    0x37, 0x51, 0x73, 0x3e, 0x3f, 0x13, 0x0a, 0xbe, 0x58, 0x65, 0x43, 0xbd,
    0x4b, 0x40, 0xc1, 0xbd, 0x2a, 0x29, 0x11, 0x3e, 0xd8, 0x92, 0x0b, 0x3e,
    0x3a, 0xa3, 0x83, 0x3d, 0x4b, 0xa0, 0x64, 0xbe, 0xea, 0x63, 0x0a, 0x3e,
    0x70, 0xa2, 0xe6, 0x3d, 0xa7, 0x22, 0x44, 0xbd, 0x6b, 0xe0, 0x7e, 0x3d,
    0x2b, 0xba, 0x1e, 0x3e, 0x83, 0x16, 0x35, 0x3d, 0x6d, 0x39, 0xb9, 0xbd,
    0x51, 0x7b, 0x00, 0xbd, 0x73, 0xbd, 0x09, 0xbd, 0x3d, 0xcc, 0xe7, 0xbd,
    0x6e, 0xd3, 0x50, 0x3d, 0xc0, 0x59, 0xac, 0x3d, 0xad, 0xd3, 0xa0, 0xbd,
    0x03, 0xcd, 0xea, 0xbc, 0x82, 0x62, 0xe5, 0x3b, 0x28, 0xd4, 0x46, 0x3d,
    0x3e, 0x9c, 0x92, 0x3d, 0x9c, 0x2c, 0xab, 0x39, 0xcf, 0x60, 0xa5, 0x3d,
    0x73, 0x56, 0xe1, 0x3d, 0x9c, 0x57, 0x87, 0xbe, 0x44, 0x4e, 0xac, 0xbd,
    0x44, 0xce, 0x30, 0x3e, 0xea, 0x67, 0xcf, 0xbd, 0xee, 0x6c, 0x38, 0x3d,
    0x5a, 0xe2, 0xf4, 0x3d, 0x7a, 0x7f, 0x16, 0xbe, 0x84, 0x7e, 0xec, 0xbd,
    0xb6, 0x97, 0x11, 0xbd, 0x19, 0xe9, 0xa5, 0xbd, 0x25, 0x9a, 0xe3, 0x3c,
    0xac, 0xfa, 0x4d, 0xbe, 0x7e, 0xce, 0x28, 0x3d, 0xe6, 0x6c, 0xca, 0xbe,
    0xab, 0xbe, 0xb6, 0xbd, 0x4d, 0x89, 0xd6, 0xbd, 0xd9, 0x6a, 0x23, 0xbe,
    0xab, 0x92, 0x70, 0xbe, 0x08, 0x3d, 0xbd, 0x3d, 0x77, 0xb3, 0xf3, 0x3d,
    0x77, 0x94, 0x11, 0x3d, 0x72, 0xbc, 0xb1, 0xbe, 0x44, 0x24, 0x5f, 0x3c,
    0xb8, 0x2c, 0x4c, 0xbe, 0x36, 0x1b, 0x8c, 0x3c, 0x71, 0x23, 0x9f, 0xbc,
    0x5b, 0x33, 0xa6, 0xbe, 0x11, 0x8b, 0xe1, 0xbe, 0xff, 0x06, 0x71, 0xbe,
    0xf3, 0xe1, 0xe1, 0xbe, 0xed, 0xce, 0x97, 0x3d, 0x2d, 0x81, 0x59, 0xbe,
    0x42, 0x85, 0xb7, 0xbe, 0x80, 0x93, 0x9e, 0x3c, 0xec, 0xe4, 0xce, 0xbe,
    0x94, 0x4a, 0x9a, 0xbe, 0x11, 0xb6, 0xa6, 0x3d, 0x00, 0x97, 0xf5, 0xbd,
    0xce, 0x6c, 0x30, 0xbe, 0xeb, 0x02, 0xb5, 0x3d, 0xaa, 0xac, 0xd6, 0xbe,
    0x28, 0x26, 0x2a, 0xbc, 0x00, 0x00, 0x06, 0x00, 0x08, 0x00, 0x04, 0x00,
    0x06, 0x00, 0x00, 0x00, 0x04, 0x00, 0x00, 0x00, 0xa0, 0x00, 0x00, 0x00,
    0x86, 0xe6, 0xd6, 0x3f, 0x32, 0x2b, 0xd0, 0x3f, 0x63, 0xf3, 0xec, 0x3f,
    0x78, 0x1a, 0x2a, 0xbe, 0x27, 0x1d, 0xbd, 0x3f, 0xa8, 0xf6, 0xc3, 0xbe,
    0x58, 0xdb, 0xd1, 0xbd, 0x62, 0x6d, 0xc8, 0x3f, 0x0e, 0x01, 0xb4, 0x3f,
    0x17, 0xf7, 0x83, 0x3f, 0x53, 0xd1, 0xb6, 0x3f, 0xfa, 0xdc, 0xc9, 0x3f,
    0x06, 0xf7, 0x67, 0xbd, 0x49, 0x6d, 0xd0, 0x3f, 0xad, 0xad, 0x1e, 0x3e,
    0xf3, 0x44, 0xd2, 0x3f, 0x66, 0xff, 0xa9, 0x3f, 0xb6, 0x01, 0xf8, 0x3f,
    0xd5, 0x2d, 0xd3, 0x3f, 0x05, 0xfc, 0xb7, 0xbc, 0x3b, 0x7a, 0x34, 0x3f,
    0x04, 0xc2, 0x26, 0x3f, 0xf0, 0x74, 0x3c, 0x3f, 0x70, 0x2a, 0xc7, 0xbe,
    0x7c, 0x5b, 0x17, 0x3f, 0xc7, 0x22, 0x64, 0xbc, 0x2c, 0x8b, 0xe1, 0xbd,
    0x5a, 0xea, 0x26, 0x3f, 0x4f, 0x9a, 0x2a, 0x3f, 0x8a, 0x7f, 0x4d, 0x3f,
    0xa0, 0xc2, 0x1b, 0x3f, 0x55, 0x1e, 0x3d, 0x3f, 0x42, 0xda, 0x74, 0x3f,
    0xb5, 0x16, 0x28, 0x3f, 0xd0, 0x0e, 0xa2, 0xbe, 0x72, 0x20, 0x33, 0x3f,
    0x8b, 0x1a, 0x09, 0x3f, 0x41, 0x87, 0x51, 0x3f, 0x66, 0x95, 0x31, 0x3f,
    0xe8, 0x0e, 0x1c, 0x3d, 0xec, 0xfa, 0xff, 0xff, 0xf0, 0xfa, 0xff, 0xff,
    0x0f, 0x00, 0x00, 0x00, 0x4d, 0x4c, 0x49, 0x52, 0x20, 0x43, 0x6f, 0x6e,
    0x76, 0x65, 0x72, 0x74, 0x65, 0x64, 0x2e, 0x00, 0x01, 0x00, 0x00, 0x00,
    0x14, 0x00, 0x00, 0x00, 0x00, 0x00, 0x0e, 0x00, 0x18, 0x00, 0x14, 0x00,
    0x10, 0x00, 0x0c, 0x00, 0x08, 0x00, 0x04, 0x00, 0x0e, 0x00, 0x00, 0x00,
    0x14, 0x00, 0x00, 0x00, 0x1c, 0x00, 0x00, 0x00, 0xd8, 0x00, 0x00, 0x00,
    0xdc, 0x00, 0x00, 0x00, 0xe0, 0x00, 0x00, 0x00, 0x04, 0x00, 0x00, 0x00,
    0x6d, 0x61, 0x69, 0x6e, 0x00, 0x00, 0x00, 0x00, 0x03, 0x00, 0x00, 0x00,
    0x80, 0x00, 0x00, 0x00, 0x38, 0x00, 0x00, 0x00, 0x04, 0x00, 0x00, 0x00,
    0x9a, 0xff, 0xff, 0xff, 0x10, 0x00, 0x00, 0x00, 0x00, 0x00, 0x00, 0x08,
    0x0c, 0x00, 0x00, 0x00, 0x10, 0x00, 0x00, 0x00, 0x68, 0xfb, 0xff, 0xff,
    0x01, 0x00, 0x00, 0x00, 0x09, 0x00, 0x00, 0x00, 0x03, 0x00, 0x00, 0x00,
    0x08, 0x00, 0x00, 0x00, 0x01, 0x00, 0x00, 0x00, 0x03, 0x00, 0x00, 0x00,
    0xca, 0xff, 0xff, 0xff, 0x10, 0x00, 0x00, 0x00, 0x00, 0x00, 0x00, 0x08,
    0x10, 0x00, 0x00, 0x00, 0x14, 0x00, 0x00, 0x00, 0xba, 0xff, 0xff, 0xff,
    0x00, 0x00, 0x00, 0x01, 0x01, 0x00, 0x00, 0x00, 0x08, 0x00, 0x00, 0x00,
    0x03, 0x00, 0x00, 0x00, 0x07, 0x00, 0x00, 0x00, 0x02, 0x00, 0x00, 0x00,
    0x04, 0x00, 0x00, 0x00, 0x00, 0x00, 0x0e, 0x00, 0x16, 0x00, 0x00, 0x00,
    0x10, 0x00, 0x0c, 0x00, 0x0b, 0x00, 0x04, 0x00, 0x0e, 0x00, 0x00, 0x00,
    0x18, 0x00, 0x00, 0x00, 0x00, 0x00, 0x00, 0x08, 0x18, 0x00, 0x00, 0x00,
    0x1c, 0x00, 0x00, 0x00, 0x00, 0x00, 0x06, 0x00, 0x08, 0x00, 0x07, 0x00,
    0x06, 0x00, 0x00, 0x00, 0x00, 0x00, 0x00, 0x01, 0x01, 0x00, 0x00, 0x00,
    0x07, 0x00, 0x00, 0x00, 0x03, 0x00, 0x00, 0x00, 0x00, 0x00, 0x00, 0x00,
    0x06, 0x00, 0x00, 0x00, 0x05, 0x00, 0x00, 0x00, 0x01, 0x00, 0x00, 0x00,
    0x09, 0x00, 0x00, 0x00, 0x01, 0x00, 0x00, 0x00, 0x00, 0x00, 0x00, 0x00,
    0x0a, 0x00, 0x00, 0x00, 0xc0, 0x03, 0x00, 0x00, 0x68, 0x03, 0x00, 0x00,
    0x10, 0x03, 0x00, 0x00, 0xd4, 0x02, 0x00, 0x00, 0x98, 0x02, 0x00, 0x00,
    0x34, 0x02, 0x00, 0x00, 0xd8, 0x01, 0x00, 0x00, 0x1c, 0x01, 0x00, 0x00,
    0x60, 0x00, 0x00, 0x00, 0x04, 0x00, 0x00, 0x00, 0x7e, 0xfc, 0xff, 0xff,
    0x00, 0x00, 0x00, 0x01, 0x14, 0x00, 0x00, 0x00, 0x1c, 0x00, 0x00, 0x00,
    0x1c, 0x00, 0x00, 0x00, 0x0a, 0x00, 0x00, 0x00, 0x34, 0x00, 0x00, 0x00,
    0x02, 0x00, 0x00, 0x00, 0xff, 0xff, 0xff, 0xff, 0x02, 0x00, 0x00, 0x00,
    0x68, 0xfc, 0xff, 0xff, 0x1b, 0x00, 0x00, 0x00, 0x53, 0x74, 0x61, 0x74,
    0x65, 0x66, 0x75, 0x6c, 0x50, 0x61, 0x72, 0x74, 0x69, 0x74, 0x69, 0x6f,
    0x6e, 0x65, 0x64, 0x43, 0x61, 0x6c, 0x6c, 0x5f, 0x31, 0x3a, 0x30, 0x00,
    0x02, 0x00, 0x00, 0x00, 0x01, 0x00, 0x00, 0x00, 0x02, 0x00, 0x00, 0x00,
    0xd6, 0xfc, 0xff, 0xff, 0x00, 0x00, 0x00, 0x01, 0x14, 0x00, 0x00, 0x00,
    0x1c, 0x00, 0x00, 0x00, 0x1c, 0x00, 0x00, 0x00, 0x09, 0x00, 0x00, 0x00,
    0x94, 0x00, 0x00, 0x00, 0x02, 0x00, 0x00, 0x00, 0xff, 0xff, 0xff, 0xff,
    0x14, 0x00, 0x00, 0x00, 0xc0, 0xfc, 0xff, 0xff, 0x78, 0x00, 0x00, 0x00,
    0x4d, 0x4c, 0x50, 0x5f, 0x33, 0x5f, 0x46, 0x65, 0x61, 0x74, 0x75, 0x72,
    0x65, 0x73, 0x5f, 0x31, 0x2f, 0x43, 0x61, 0x6d, 0x61, 0x64, 0x61, 0x5f,
    0x4f, 0x63, 0x75, 0x6c, 0x74, 0x61, 0x5f, 0x32, 0x5f, 0x31, 0x2f, 0x4d,
    0x61, 0x74, 0x4d, 0x75, 0x6c, 0x3b, 0x4d, 0x4c, 0x50, 0x5f, 0x33, 0x5f,
    0x46, 0x65, 0x61, 0x74, 0x75, 0x72, 0x65, 0x73, 0x5f, 0x31, 0x2f, 0x43,
    0x61, 0x6d, 0x61, 0x64, 0x61, 0x5f, 0x4f, 0x63, 0x75, 0x6c, 0x74, 0x61,
    0x5f, 0x32, 0x5f, 0x31, 0x2f, 0x52, 0x65, 0x6c, 0x75, 0x3b, 0x4d, 0x4c,
    0x50, 0x5f, 0x33, 0x5f, 0x46, 0x65, 0x61, 0x74, 0x75, 0x72, 0x65, 0x73,
    0x5f, 0x31, 0x2f, 0x43, 0x61, 0x6d, 0x61, 0x64, 0x61, 0x5f, 0x4f, 0x63,
    0x75, 0x6c, 0x74, 0x61, 0x5f, 0x32, 0x5f, 0x31, 0x2f, 0x41, 0x64, 0x64,
    0x00, 0x00, 0x00, 0x00, 0x02, 0x00, 0x00, 0x00, 0x01, 0x00, 0x00, 0x00,
    0x14, 0x00, 0x00, 0x00, 0x8e, 0xfd, 0xff, 0xff, 0x00, 0x00, 0x00, 0x01,
    0x14, 0x00, 0x00, 0x00, 0x1c, 0x00, 0x00, 0x00, 0x1c, 0x00, 0x00, 0x00,
    0x08, 0x00, 0x00, 0x00, 0x94, 0x00, 0x00, 0x00, 0x02, 0x00, 0x00, 0x00,
    0xff, 0xff, 0xff, 0xff, 0x23, 0x00, 0x00, 0x00, 0x78, 0xfd, 0xff, 0xff,
    0x78, 0x00, 0x00, 0x00, 0x4d, 0x4c, 0x50, 0x5f, 0x33, 0x5f, 0x46, 0x65,
    0x61, 0x74, 0x75, 0x72, 0x65, 0x73, 0x5f, 0x31, 0x2f, 0x43, 0x61, 0x6d,
    0x61, 0x64, 0x61, 0x5f, 0x4f, 0x63, 0x75, 0x6c, 0x74, 0x61, 0x5f, 0x31,
    0x5f, 0x31, 0x2f, 0x4d, 0x61, 0x74, 0x4d, 0x75, 0x6c, 0x3b, 0x4d, 0x4c,
    0x50, 0x5f, 0x33, 0x5f, 0x46, 0x65, 0x61, 0x74, 0x75, 0x72, 0x65, 0x73,
    0x5f, 0x31, 0x2f, 0x43, 0x61, 0x6d, 0x61, 0x64, 0x61, 0x5f, 0x4f, 0x63,
    0x75, 0x6c, 0x74, 0x61, 0x5f, 0x31, 0x5f, 0x31, 0x2f, 0x52, 0x65, 0x6c,
    0x75, 0x3b, 0x4d, 0x4c, 0x50, 0x5f, 0x33, 0x5f, 0x46, 0x65, 0x61, 0x74,
    0x75, 0x72, 0x65, 0x73, 0x5f, 0x31, 0x2f, 0x43, 0x61, 0x6d, 0x61, 0x64,
    0x61, 0x5f, 0x4f, 0x63, 0x75, 0x6c, 0x74, 0x61, 0x5f, 0x31, 0x5f, 0x31,
    0x2f, 0x41, 0x64, 0x64, 0x00, 0x00, 0x00, 0x00, 0x02, 0x00, 0x00, 0x00,
    0x01, 0x00, 0x00, 0x00, 0x23, 0x00, 0x00, 0x00, 0x9a, 0xfe, 0xff, 0xff,
    0x00, 0x00, 0x00, 0x01, 0x10, 0x00, 0x00, 0x00, 0x10, 0x00, 0x00, 0x00,
    0x07, 0x00, 0x00, 0x00, 0x38, 0x00, 0x00, 0x00, 0x20, 0xfe, 0xff, 0xff,
    0x29, 0x00, 0x00, 0x00, 0x4d, 0x4c, 0x50, 0x5f, 0x33, 0x5f, 0x46, 0x65,
    0x61, 0x74, 0x75, 0x72, 0x65, 0x73, 0x5f, 0x31, 0x2f, 0x43, 0x61, 0x6d,
    0x61, 0x64, 0x61, 0x5f, 0x4f, 0x63, 0x75, 0x6c, 0x74, 0x61, 0x5f, 0x31,
    0x5f, 0x31, 0x2f, 0x4d, 0x61, 0x74, 0x4d, 0x75, 0x6c, 0x00, 0x00, 0x00,
    0x02, 0x00, 0x00, 0x00, 0x23, 0x00, 0x00, 0x00, 0x03, 0x00, 0x00, 0x00,
    0xf2, 0xfe, 0xff, 0xff, 0x00, 0x00, 0x00, 0x01, 0x10, 0x00, 0x00, 0x00,
    0x10, 0x00, 0x00, 0x00, 0x06, 0x00, 0x00, 0x00, 0x44, 0x00, 0x00, 0x00,
    0x78, 0xfe, 0xff, 0xff, 0x35, 0x00, 0x00, 0x00, 0x4d, 0x4c, 0x50, 0x5f,
    0x33, 0x5f, 0x46, 0x65, 0x61, 0x74, 0x75, 0x72, 0x65, 0x73, 0x5f, 0x31,
    0x2f, 0x43, 0x61, 0x6d, 0x61, 0x64, 0x61, 0x5f, 0x4f, 0x63, 0x75, 0x6c,
    0x74, 0x61, 0x5f, 0x31, 0x5f, 0x31, 0x2f, 0x41, 0x64, 0x64, 0x2f, 0x52,
    0x65, 0x61, 0x64, 0x56, 0x61, 0x72, 0x69, 0x61, 0x62, 0x6c, 0x65, 0x4f,
    0x70, 0x00, 0x00, 0x00, 0x01, 0x00, 0x00, 0x00, 0x23, 0x00, 0x00, 0x00,
    0x52, 0xff, 0xff, 0xff, 0x00, 0x00, 0x00, 0x01, 0x10, 0x00, 0x00, 0x00,
    0x10, 0x00, 0x00, 0x00, 0x05, 0x00, 0x00, 0x00, 0x1c, 0x00, 0x00, 0x00,
    0xd8, 0xfe, 0xff, 0xff, 0x0f, 0x00, 0x00, 0x00, 0x61, 0x72, 0x69, 0x74,
    0x68, 0x2e, 0x63, 0x6f, 0x6e, 0x73, 0x74, 0x61, 0x6e, 0x74, 0x33, 0x00,
    0x01, 0x00, 0x00, 0x00, 0x14, 0x00, 0x00, 0x00, 0x8a, 0xff, 0xff, 0xff,
    0x00, 0x00, 0x00, 0x01, 0x10, 0x00, 0x00, 0x00, 0x10, 0x00, 0x00, 0x00,
    0x04, 0x00, 0x00, 0x00, 0x1c, 0x00, 0x00, 0x00, 0x10, 0xff, 0xff, 0xff,
    0x0f, 0x00, 0x00, 0x00, 0x61, 0x72, 0x69, 0x74, 0x68, 0x2e, 0x63, 0x6f,
    0x6e, 0x73, 0x74, 0x61, 0x6e, 0x74, 0x32, 0x00, 0x01, 0x00, 0x00, 0x00,
    0x02, 0x00, 0x00, 0x00, 0xc2, 0xff, 0xff, 0xff, 0x00, 0x00, 0x00, 0x01,
    0x10, 0x00, 0x00, 0x00, 0x10, 0x00, 0x00, 0x00, 0x03, 0x00, 0x00, 0x00,
    0x1c, 0x00, 0x00, 0x00, 0x48, 0xff, 0xff, 0xff, 0x0f, 0x00, 0x00, 0x00,
    0x61, 0x72, 0x69, 0x74, 0x68, 0x2e, 0x63, 0x6f, 0x6e, 0x73, 0x74, 0x61,
    0x6e, 0x74, 0x31, 0x00, 0x02, 0x00, 0x00, 0x00, 0x14, 0x00, 0x00, 0x00,
    0x23, 0x00, 0x00, 0x00, 0x00, 0x00, 0x16, 0x00, 0x18, 0x00, 0x14, 0x00,
    0x00, 0x00, 0x10, 0x00, 0x0c, 0x00, 0x08, 0x00, 0x00, 0x00, 0x00, 0x00,
    0x00, 0x00, 0x07, 0x00, 0x16, 0x00, 0x00, 0x00, 0x00, 0x00, 0x00, 0x01,
    0x10, 0x00, 0x00, 0x00, 0x10, 0x00, 0x00, 0x00, 0x02, 0x00, 0x00, 0x00,
    0x1c, 0x00, 0x00, 0x00, 0x9c, 0xff, 0xff, 0xff, 0x0e, 0x00, 0x00, 0x00,
    0x61, 0x72, 0x69, 0x74, 0x68, 0x2e, 0x63, 0x6f, 0x6e, 0x73, 0x74, 0x61,
    0x6e, 0x74, 0x00, 0x00, 0x02, 0x00, 0x00, 0x00, 0x02, 0x00, 0x00, 0x00,
    0x14, 0x00, 0x00, 0x00, 0x00, 0x00, 0x16, 0x00, 0x1c, 0x00, 0x18, 0x00,
    0x00, 0x00, 0x14, 0x00, 0x10, 0x00, 0x0c, 0x00, 0x00, 0x00, 0x00, 0x00,
    0x08, 0x00, 0x07, 0x00, 0x16, 0x00, 0x00, 0x00, 0x00, 0x00, 0x00, 0x01,
    0x14, 0x00, 0x00, 0x00, 0x20, 0x00, 0x00, 0x00, 0x20, 0x00, 0x00, 0x00,
    0x01, 0x00, 0x00, 0x00, 0x3c, 0x00, 0x00, 0x00, 0x02, 0x00, 0x00, 0x00,
    0xff, 0xff, 0xff, 0xff, 0x03, 0x00, 0x00, 0x00, 0x04, 0x00, 0x04, 0x00,
    0x04, 0x00, 0x00, 0x00, 0x1d, 0x00, 0x00, 0x00, 0x73, 0x65, 0x72, 0x76,
    0x69, 0x6e, 0x67, 0x5f, 0x64, 0x65, 0x66, 0x61, 0x75, 0x6c, 0x74, 0x5f,
    0x69, 0x6e, 0x70, 0x75, 0x74, 0x5f, 0x6c, 0x61, 0x79, 0x65, 0x72, 0x3a,
    0x30, 0x00, 0x00, 0x00, 0x02, 0x00, 0x00, 0x00, 0x01, 0x00, 0x00, 0x00,
    0x03, 0x00, 0x00, 0x00, 0x01, 0x00, 0x00, 0x00, 0x10, 0x00, 0x00, 0x00,
    0x0c, 0x00, 0x0c, 0x00, 0x0b, 0x00, 0x00, 0x00, 0x00, 0x00, 0x04, 0x00,
    0x0c, 0x00, 0x00, 0x00, 0x09, 0x00, 0x00, 0x00, 0x00, 0x00, 0x00, 0x09};
unsigned int ann_MLP_3F_tflite_len = 5556;
